TRT-7103-EntropyCalibration2
input: 4000890a
31: 40912484
32: 3d6b64cd
33: 3d66168d
34: 3d66168d
35: 3d4f306a
36: 3d3504fe
37: 3d07438b
38: 3d07438b
39: 3d1b98d3
40: 3cedc88c
41: 3ccde0fe
42: 3c90b708
43: 3cf7c758
44: 3d011071
output: 3d176b7c
