TRT-7103-EntropyCalibration2
input: 4000890a
31: 40b5e388
32: 3d71915d
33: 3d5cc7ea
34: 3d5cc7ea
35: 3d5a0a4f
36: 3d2d7854
37: 3d07de94
38: 3d07de94
39: 3ceb4f5c
40: 3cfa6600
41: 3cd0f867
42: 3ca7cee6
43: 3ce1ccd9
44: 3ce1ccd9
output: 3d0e3526
